75F7
0130
1211
03F5
7CF9
6214
71F5
7FE8
72EF
6F0D
0A13
6407
03DF
0A07
1E17
7AFF
75EF
14FF
000B
021A
71EC
180F
6C06
0823
0E03
0B22
76EE
5F06
07F6
74FB
1902
0E1D
0506
0F00
710D
7F0D
02F8
0312
7DF8
07EE
0D10
0802
06F7
6A1B
7BFA
00F5
7D1C
0E07
070E
0E0E
1C25
6E01
78FA
6B13
7EEE
00FB

