00FF
08F8
060F
05FD
0201
0A06
0721
39FC
3D06
3EF1
3E01
3FF7
38F8
29FD
2D05
3110
2EF7
370C
01FC
0A04
3C07
3C05
04FC
3C08
0001
3B05
0006
3D0E
37FE
08FE
010C
3B03
3800
35F0
3000
02FF
35F8
1204
38F9
090A
03F7
11E6
3DF9
300F
3004
0504
3AF9
0DF5
14FB
04F7
3DFD
00F5
3BF6
0200
070B
0FEE

