0013
7BF9
72F9
740A
0F11
7DF1
1A27
06F4
76D8
7305
7EE7
031B
71FC
08E9
7BF8
711C
75E7
1804
0EDE
0627
78F1
79F8
09FB
7C08
5AFD
6D1C
6803
0812
0404
0DDB
6F03
701B
7501
6DE6
7C0D
000F
06E7
7F03
020E
03EE
09FA
6CE4
7BD5
0028
7AEA
0706
21FA
7503
0D1B
78FD
7004
7D1F
1E1E
6CF7
0809
0AE4

