0AF8
0708
0405
0109
0200
3D11
35FF
08F9
3D00
04FE
3CFC
3C02
00FC
0406
39FC
180A
3D0C
09FD
38FF
35F5
07FB
3705
0C03
3B04
0F09
0104
3C09
3BFF
2605
0301
38FA
3B02
3EF7
3E03
0314
02FE
000B
3FF2
3F14
38F9
3A02
2CF4
0115
0007
2F05
3706
3E02
2CFD
000B
08FC
01FD
0302
04FF
3E09
0901
030F

